f8 7c fd 94 b1 9c 3a c6 2e a6 33 32 36 89 c7 47 
5c 82 f5 46 1a 66 1b c1 3c 4b 6c 8f c5 cd 41 58 
58 a4 02 79 6e bf 2a 77 04 1c e6 1e c9 d0 e9 32 
cd d5 8b 24 ec 51 da ae df d8 6a 81 14 8e 2d d4 
be c1 42 7b 8e 93 d4 92 bc 33 c3 c6 ca 4d 25 2d 
ce 46 39 04 d8 ea 24 22 8b 8f 35 54 6b dc e7 7e 
b8 1e 13 48 9e 88 a0 36 db 0d bf b6 0a 05 ef 1f 
97 bf 83 77 f2 73 02 05 4c 6b 45 20 62 5b b0 4d 
b3 98 a0 a1 8b 26 60 e1 2f ef 80 a6 26 54 83 7b 
21 b4 53 47 c3 4c 49 71 07 83 26 e2 22 97 bf c2 
8e 5f 7a 93 e9 fb 1d af ba fc c5 0e 3e 8d f3 0b 
1d 6b 16 22 5e 87 28 49 0e 1b 44 8a e5 1b ea 91 
f5 44 c4 45 3f 46 67 6e d6 11 36 3c 65 be b1 cf 
35 3b 0a b2 10 db 52 14 21 ce 69 d7 d9 e4 45 b1 
39 6a 2e 88 7c ea 33 80 7b fb 60 39 61 7d 09 00 
42 62 2f d3 ac 42 a8 92 de e2 b9 b8 f6 da 7c 2a 
d0 e3 90 bf d2 85 83 c9 06 30 6d 82 70 55 8c 42 
d1 b3 f6 05 7c 53 e4 5f 08 08 e1 a3 b3 f0 8d 03 
fc 3d 5e ef 23 12 d1 d3 3c c2 75 74 31 1c 11 0c 
3c 3e f2 2f cb 7d bb f4 b4 c3 50 bb 4f 63 e7 2c 
dd 66 88 dc 84 7c 6d 97 4e 79 3b 60 59 f9 66 f0 
9b bd eb e7 ee 6a a5 1a 06 bc 34 d5 96 25 9a aa 
9b 31 a6 62 52 ce 31 93 b6 37 70 e8 b5 62 ad 8b 
16 af 54 f1 d3 5f d0 a2 2c 98 2e 96 a0 bf a6 76 
b5 56 9f f9 80 fc e4 bd 57 36 f8 c0 62 5b 65 e0 
3c b0 46 9d 21 ca d8 5f 31 d5 ff 3d 42 6b 99 c7 
bf 88 dd 1d 89 f4 76 c2 b7 75 17 ae 49 37 66 92 
7c f3 57 5e b4 53 a5 a6 d3 c1 66 f0 5c 99 e6 e2 
ad f2 22 ec a0 00 52 45 f0 58 43 4d 58 8a d8 57 
92 66 81 eb 08 06 3e 23 5d cf 86 b3 2a cc 87 a8 
8b 6a 92 29 54 de 87 20 da 1b b8 45 73 f6 fa a5 
b8 b8 43 74 8b 28 6c eb 25 66 05 df 54 e5 80 f5 
96 47 72 7d 18 cd ee 80 35 22 ac 6f 0a 57 8d d2 
b7 4d e4 6c 3c 3e b0 17 9a e1 90 0e 54 f2 0e 68 
14 ea 77 10 24 50 51 dc 5a 1a ef 19 30 5a 98 8b 
23 36 43 01 0b 48 17 36 c3 94 43 e8 d6 dc 40 f0 
c3 48 79 48 b6 c1 44 fc 8a 64 3b 52 68 80 e4 c1 
21 f5 23 f5 d0 80 ac 2e 98 46 d0 87 68 de e7 f8 
77 24 bb fb 12 87 59 50 0b 2f 6f 0d aa c8 8c 83 
4a 91 2e 3a 77 e1 e4 24 b2 10 c2 45 43 bd 4f f4 
74 de 66 70 c0 af 36 77 67 51 a5 8a d9 ed 9d 43 
72 4f 40 d4 87 02 52 be 5d 4d 90 cd 47 b0 c9 da 
23 e0 38 c2 f5 aa 1d 3f 26 18 49 c5 92 2e 0b a2 
b6 97 ff f2 83 dc 52 c3 ce d9 0f 09 9d e8 e4 dc 
e3 cb cf 19 90 a0 c2 a3 0c fa d6 0f b8 53 81 59 
4e f8 c9 b9 87 a6 14 b1 0c 16 19 04 b2 64 b8 f0 
1a 79 3e e5 fc 6c 2b d5 82 2d 8a 31 12 11 9c 46 
1f cb 9b 04 d7 f4 7b 25 8e f4 1f e2 4b af bf 58 
1c 15 fa ca f9 40 c3 60 95 41 77 2a 66 42 cf b2 
ac de 21 3a 5f c5 f2 c5 69 a3 6d fe b1 73 d0 c3 
36 3d 9f df 53 6f 07 80 37 64 78 2d fb 53 b3 45 
d1 da 2b ec 3c 21 0e e6 9b 28 c3 19 47 6b 82 d2 
c2 68 34 0a fb 16 63 8c c9 c2 12 de 3e 63 8a 14 
0d 4f 67 34 59 c0 21 de f7 e9 05 3f 80 9a 36 ca 
00 67 04 c6 02 11 d6 0d 72 cf ac 45 86 d1 2d 43 
fe b2 21 11 f9 76 e0 a2 a5 25 6b d7 eb 52 9c 81 
3d cd 75 ff 97 c1 cf d9 80 fb ae 4e ff 25 4f 4d 
bf 9f a2 c8 60 49 71 d5 c3 a6 50 35 04 f3 65 01 
f7 92 4c 31 6c b4 d4 18 3e 95 bc ae 83 06 14 9c 
f6 02 e2 c5 2b 08 3e 84 1e d5 53 0d 0c 2d b4 fb 
e4 02 5a 2b b6 62 36 b6 53 f0 99 80 fa 4c 7a d5 
cf 5e 6d 09 4e 94 34 ba 67 9c 9c 5e b1 3e a3 e5 
d4 49 3f 13 13 db 33 fb af c4 da 9e eb 3f fc 04 
70 d1 5c f5 eb 41 66 6b 2a 95 eb 30 a2 1b ad e5 
70 4c ef 23 f9 ac 78 3d 2c 11 73 cb e9 28 ee d6 
ed 1e 57 39 8b 7a 36 7d b3 3e de d4 db 59 42 0b 
59 59 c8 47 5f e6 b4 ff 86 e8 db b7 03 34 cd bf 
d4 55 ff ec 89 50 ce ac da f8 07 7e 63 6a 67 f0 
77 04 31 f4 01 61 4a 9d b4 b0 f6 b9 40 8c 02 9c 
71 02 c2 a6 4b be 2f b5 35 97 fe b2 ba 6c eb 41 
2d e0 76 1b b4 b9 e9 c3 ba 05 d3 f9 75 70 39 18 
23 1e 47 d3 da 2e 3c fd 3a 50 e8 83 72 aa dd 43 
bc a4 31 7b c3 02 4e 99 bb d6 c4 7b 33 21 b0 26 
f2 bd 59 97 0f 7d 85 17 f1 fb 1d 7a e0 7b ea 9d 
a7 d2 94 35 31 32 ac 8b 7b b3 6d 47 c2 ac de 4e 
49 57 27 fd 1c b4 b4 e5 d7 b4 5e 04 79 6d 3d b6 
12 e0 8e cf 1a 3e 25 0c 09 69 a6 c2 d8 3b bc 51 
a0 44 fc b1 a9 53 75 ae 7e 54 9b 04 f0 fe df dc 
9f 9d 72 97 e3 7e 68 7b e4 0e cb 28 db 3f 25 31 
7c 8f 2a 76 c2 fc 2c 44 6d a5 45 a6 ef c0 a1 74 
95 89 79 9d 10 da 8f 22 96 c3 41 63 2a da 09 85 
85 9f 31 6f ea 0a 10 bd 31 16 c4 78 98 81 58 5f 
20 c9 bd 7c 37 a2 5b c9 12 9c ea 3e c5 ea 14 c4 
ae 00 fb 62 8e 9b 9f e8 83 8b 7d 01 82 61 4e 3f 
97 14 ac 58 f6 1d e8 a6 2b f6 34 d0 3e d6 88 ae 
33 07 5c fd 44 14 fe da 68 66 c6 47 b9 90 24 d1 
88 09 84 72 74 9a 37 9b 2d 13 05 3e 41 4f 73 cb 
49 65 d6 5d cd 2e 41 fa f4 24 4b 6e ff 54 37 d9 
a5 01 be 09 3a 0d 6f 54 34 e5 e7 b8 b0 b6 67 d9 
bd a0 7d 35 07 47 06 35 e5 2c d1 8e 6b 49 8e 00 
08 c2 f8 f9 b0 26 d9 af 72 97 f5 ef 46 3e f3 8f 
f6 cd 32 44 9c 72 c8 dc b7 13 e1 9e 1b 97 15 23 
45 59 07 24 4b 00 a0 8c 9c 10 53 63 28 9c a1 31 
db e1 37 b7 b8 9c 51 91 24 3e 1b b6 b4 81 64 60 
00 62 db df 67 aa 68 8e 34 1c fd 99 c9 f8 04 d2 
51 ac 17 0a 2c 36 92 25 35 52 2a c3 c5 d8 91 d9 
5f b4 dd 8b c8 08 f3 8a ef 2b 2f d9 d2 3c 67 22 
7e 7e 06 59 05 28 ed ef 77 40 7c a2 8e b5 d3 e0 
14 5d c5 8a c4 28 7a fc e4 19 34 2c ba d5 df c3 
b9 98 b8 35 09 d2 e1 3e 03 5d 79 8c ea 96 76 76 
50 cc b4 a3 1f be fe a1 8c c0 6f 95 ac cb 35 bf 
62 5c c4 1b 50 0a 6b db 31 eb ce e8 ae 1a d0 ad 
c5 35 fd b9 cc 05 e5 4f 5c 9c 20 43 7b ba 6e 47 
5f f3 b3 c1 5e e2 f2 5e 15 89 d5 7e a6 2e 26 7c 
0f a7 52 c7 6d eb f2 72 e1 7c 6c 93 91 0f 77 6f 
5f 33 f2 35 55 85 f8 f2 e3 45 6f cc ae 01 5c 1b 
d3 ff 3f 08 27 43 a9 42 c0 7d c2 bd 16 53 d9 0e 
d9 fc 60 ae d6 27 b2 a5 b4 4c 81 7a 51 31 a6 e6 
64 91 66 94 62 b1 19 17 79 7b b7 d6 34 cc 80 c9 
02 9a 58 b2 f7 c7 09 60 93 94 ff 36 f9 d9 b2 2a 
f4 29 18 96 3f 69 ad 64 84 c9 9e dc 24 f0 25 fb 
15 ce 04 e4 64 db 05 c8 ce ef 41 f0 98 0b 2f df 
c4 ba 30 9c cb fa 42 3d 63 17 74 14 8e 09 82 12 
ec 92 1f 71 81 64 e5 d4 3c 82 9f 32 95 0c 40 35 
4c f6 41 0f f4 de df 45 28 a0 27 dc 44 51 7b f2 
e4 da 2a a6 18 00 ac 8b 00 bb ae 22 29 84 36 ec 
5e 0b 2e fc aa 72 6e 99 a1 64 a8 66 d3 d9 10 3f 
64 bd 99 0b 5d 23 04 2c 19 26 99 14 45 e0 53 af 
c5 74 f4 28 49 68 db 70 cf 02 e1 fd 25 ec bd b5 
34 80 9f 8b 8d d2 fd 31 be 62 ff 4e 0a 37 bf 21 
15 f0 27 c6 05 be 44 64 c4 8b d5 08 11 c7 cb d2 
d8 5d 38 3d d6 a7 f5 74 82 b0 e9 b8 ae e8 3f f1 
bc e4 c5 55 de d1 97 8b 61 1f 04 97 2b 13 81 df 
b8 44 d3 c0 b3 18 d5 49 2d 1e d1 35 2f 3b a0 e9 
dc bb c0 60 16 7c ad ee 83 4e 93 bd ee cd 1f 6c 
e8 9f 37 dd 6c a1 a9 51 af 76 33 5a 9c cc 70 6c 
61 7c e6 8a d7 e3 6a 8d 87 01 30 20 82 d8 20 0e 
77 7e fa a2 39 b4 ae da 83 df 57 89 1e 60 fa 81 
5c 22 c8 c4 56 e2 de 66 6d 51 20 55 c1 38 7b 06 
58 d1 a3 8f b8 74 32 65 1a 3d 4d 1a 38 84 df 70 
cd e3 48 bf de 26 59 97 35 62 cd 40 cd 8d d2 cf 
86 d4 d4 ee f8 67 37 db 0d ed 4a dd 9b ce d8 bd 
1b 9d 25 23 b4 0c f8 c9 75 b3 ea 98 5f fd 16 6f 
d6 aa 47 3f 32 e1 ca 04 ca bb 45 15 f2 f3 89 de 
70 5c 93 3d 01 70 54 5a d7 36 e7 3c d9 c0 fc 40 
9c b1 75 ea 05 bf a9 06 85 26 ce 02 f3 84 72 57 
0d d8 af d6 f2 7b cf 55 98 2d 60 24 1a 4b b6 78 
e4 51 ae e0 8e b2 fb 40 01 d1 09 c8 4d b6 b5 19 
35 fa 4f 64 2d 35 3c 62 67 ec 5c d9 8e a2 2b 81 
c1 06 80 ae 2a 68 e1 99 fb 02 61 4f fd c8 5e 7c 
86 de ea 71 e1 3b 53 43 df c9 c0 cb cd bf a9 36 
65 58 ab 3d 99 c2 a9 78 be d7 fa 37 11 9d 0c 91 
ae 1c cc ad eb f3 f9 be 64 2f 56 48 22 31 aa 6f 
8b 9d 82 38 bc 24 26 00 1b f6 e6 97 2c 73 d7 03 
