d1 52 c7  45 49 73  78 51 11  eb f3 ac  b0 5a 03  f3 bc 67  f2 19 d1  7c 26 1b  14 dd 69  b2 a4 a7  a8 8e 54  d8 f3 e1  b9 50 72  9b 6e 79  51 cf c6  cc 66 6f  
92 01 45  54 55 0f  ee bc 11  9b 0a 14  c3 f8 d0  6f 82 d8  51 70 ae  29 8c f9  e9 ed 14  e4 33 b0  f4 b1 db  24 e7 30  c2 9c 25  03 74 d9  95 b0 1e  8d 12 f2  
ce c8 1a  6e 9e 94  bb 08 a3  dc 2d 25  74 cd 32  df a3 43  df b6 bf  f6 63 e0  c5 52 36  ea a7 04  ba 6a 32  79 b4 41  29 f3 3a  dc 7c 25  32 ed 40  d3 53 75  
08 27 1c  e1 31 ec  48 45 b8  4b 64 02  19 db 00  14 25 e0  b9 82 e4  32 be 39  c1 87 59  36 4f e5  75 f5 9a  b3 af 11  93 e6 7c  24 c8 6d  04 f8 97  97 65 1d  
06 ac f7  75 17 59  8c 1d 7d  98 69 ff  b7 8a 8e  ac c4 38  ef 71 ef  55 6a 39  44 c1 fe  c0 e4 6a  7e 2d 33  b1 82 ef  4f e6 60  da a0 0b  eb 15 d6  c5 dd 6d  
58 29 f2  6a e7 57  78 64 7a  e8 c9 53  88 ed 39  71 6a a8  e6 8b 97  f5 ba 9b  05 93 fd  a8 f4 38  06 1d 49  e0 6d b8  52 7e 16  0e ab 1a  41 5a 2c  48 a5 a5  
80 0d c7  24 c3 2e  67 00 ad  83 ce 97  16 9b f0  15 75 03  55 e8 fc  02 91 a4  1f 82 b6  5b 80 e9  ce 91 e4  f4 a8 72  d9 30 6e  b7 95 5a  56 b2 b1  b0 dd 95  
97 03 ec  2f 0b 59  56 0c df  39 96 99  37 89 fe  ed fd 3a  f6 05 34  a9 72 27  0d 5f b2  69 86 46  47 ce 56  49 25 3c  74 03 b9  5a 1b 40  cc a3 d5  f2 a3 c9  
0f 14 16  ac f1 a8  d1 73 3a  35 3c 02  50 ab 13  4c 4e 83  17 8f 5b  d3 72 a0  7d 39 6a  d8 98 f7  95 44 bf  6f d6 7d  d9 86 4e  44 f8 8e  da ee 98  4c 53 eb  
